<unk>	0
<s>	0
</s>	0
▁t	-0
▁a	-1
he	-2
st	-3
▁i	-4
▁the	-5
nd	-6
or	-7
▁c	-8
ar	-9
▁m	-10
▁p	-11
an	-12
▁b	-13
er	-14
▁o	-15
▁s	-16
ll	-17
es	-18
▁and	-19
▁w	-20
▁in	-21
▁st	-22
ri	-23
▁to	-24
re	-25
ng	-26
▁f	-27
ck	-28
ve	-29
▁of	-30
▁l	-31
▁is	-32
ing	-33
ock	-34
at	-35
▁stock	-36
om	-37
vest	-38
▁e	-39
▁invest	-40
et	-41
on	-42
all	-43
▁bu	-44
ro	-45
ce	-46
it	-47
▁th	-48
▁pri	-49
ed	-50
ad	-51
any	-52
▁investor	-53
en	-54
▁com	-55
le	-56
▁A	-57
ket	-58
ver	-59
▁mar	-60
▁comp	-61
▁market	-62
▁d	-63
al	-64
ch	-65
▁g	-66
▁sh	-67
▁tr	-68
se	-69
ell	-70
▁be	-71
▁lo	-72
ho	-73
▁price	-74
ou	-75
▁or	-76
▁shar	-77
ay	-78
▁T	-79
▁re	-80
▁buy	-81
ge	-82
▁can	-83
▁investors	-84
ly	-85
▁I	-86
▁an	-87
▁on	-88
▁ri	-89
ort	-90
▁call	-91
ol	-92
▁that	-93
▁trad	-94
▁called	-95
▁company	-96
hi	-97
im	-98
ore	-99
▁mo	-100
▁are	-101
▁stocks	-102
▁n	-103
ent	-104
▁The	-105
▁sell	-106
ces	-107
nds	-108
▁it	-109
▁ris	-110
gh	-111
th	-112
row	-113
▁u	-114
▁v	-115
ati	-116
ers	-117
▁more	-118
ec	-119
in	-120
ir	-121
ld	-122
ow	-123
▁S	-124
▁k	-125
▁di	-126
▁fu	-127
▁mon	-128
▁many	-129
as	-130
ic	-131
op	-132
arn	-133
hen	-134
ith	-135
▁as	-136
▁at	-137
arge	-138
▁grow	-139
▁they	-140
▁prices	-141
▁shares	-142
ee	-143
ex	-144
id	-145
tu	-146
ul	-147
▁y	-148
ies	-149
▁ex	-150
▁ho	-151
▁for	-152
▁fall	-153
▁most	-154
▁risk	-155
▁with	-156
▁large	-157
ap	-158
ey	-159
is	-160
▁W	-161
her	-162
ust	-163
▁by	-164
ment	-165
ndex	-166
very	-167
▁one	-168
▁ord	-169
▁who	-170
▁earn	-171
▁share	-172
ew	-173
nt	-174
ant	-175
ear	-176
ess	-177
ill	-178
ten	-179
▁In	-180
▁bo	-181
▁pl	-182
▁pu	-183
ange	-184
▁bec	-185
▁tim	-186
▁you	-187
anies	-188
▁index	-189
▁money	-190
▁often	-191
au	-192
io	-193
ot	-194
rn	-195
wn	-196
▁h	-197
ect	-198
eop	-199
mou	-200
▁fa	-201
ause	-202
ings	-203
port	-204
▁cap	-205
▁low	-206
▁own	-207
▁pro	-208
▁vol	-209
eople	-210
▁their	-211
▁people	-212
ab	-213
si	-214
ue	-215
um	-216
▁O	-217
ead	-218
fit	-219
ick	-220
ter	-221
▁do	-222
▁hi	-223
▁sm	-224
▁pay	-225
▁way	-226
▁whi	-227
▁When	-228
▁long	-229
▁than	-230
▁time	-231
▁will	-232
change	-233
▁small	-234
▁trade	-235
▁profit	-236
▁because	-237
▁companies	-238
ak	-239
ts	-240
▁E	-241
▁r	-242
ate	-243
eep	-244
fer	-245
fol	-246
ity	-247
now	-248
ply	-249
rou	-250
sif	-251
▁If	-252
▁ch	-253
▁go	-254
▁sa	-255
▁su	-256
▁us	-257
able	-258
alue	-259
ther	-260
turn	-261
▁but	-262
▁wor	-263
ation	-264
erson	-265
folio	-266
mount	-267
▁keep	-268
▁port	-269
▁them	-270
▁well	-271
versif	-272
▁value	-273
▁amount	-274
▁person	-275
▁return	-276
▁portfolio	-277
bl	-278
il	-279
ss	-280
▁D	-281
▁N	-282
ght	-283
ion	-284
oll	-285
ors	-286
vid	-287
▁St	-288
▁me	-289
▁mi	-290
ally	-291
blic	-292
▁all	-293
▁car	-294
▁eve	-295
▁not	-296
▁sim	-297
▁use	-298
ingle	-299
rough	-300
▁fund	-301
▁this	-302
▁very	-303
▁want	-304
▁when	-305
▁bonds	-306
▁divid	-307
▁falls	-308
▁order	-309
▁which	-310
▁growth	-311
▁public	-312
▁single	-313
▁through	-314
▁diversif	-315
▁earnings	-316
▁exchange	-317
▁investing	-318
ks	-319
od	-320
qu	-321
▁C	-322
▁F	-323
▁j	-324
ace	-325
ach	-326
con	-327
end	-328
erm	-329
est	-330
ild	-331
ker	-332
omy	-333
ost	-334
ume	-335
uri	-336
ves	-337
▁To	-338
▁ac	-339
▁im	-340
▁le	-341
▁li	-342
akes	-343
ance	-344
atch	-345
atil	-346
eady	-347
fore	-348
ions	-349
nown	-350
reed	-351
ries	-352
ture	-353
ular	-354
▁Com	-355
▁bro	-356
▁cle	-357
▁few	-358
▁fir	-359
▁loo	-360
▁per	-361
▁str	-362
▁try	-363
▁usu	-364
▁bear	-365
▁bull	-366
▁each	-367
▁econ	-368
▁fear	-369
▁high	-370
▁hold	-371
▁just	-372
▁move	-373
▁over	-374
▁plan	-375
▁tell	-376
▁term	-377
▁build	-378
▁earns	-379
▁known	-380
▁month	-381
▁other	-382
▁these	-383
atility	-384
portant	-385
vestors	-386
▁broker	-387
▁future	-388
▁stable	-389
▁steady	-390
▁volume	-391
▁economy	-392
▁usually	-393
▁Investors	-394
▁important	-395
▁volatility	-396
PO	-397
ac	-398
dd	-399
iz	-400
ke	-401
ti	-402
to	-403
wo	-404
▁B	-405
▁M	-406
ain	-407
alm	-408
and	-409
ans	-410
ary	-411
eel	-412
ews	-413
ful	-414
ied	-415
ite	-416
ome	-417
pre	-418
sin	-419
▁An	-420
▁On	-421
▁ag	-422
▁fi	-423
▁ha	-424
▁he	-425
▁mu	-426
▁no	-427
▁qu	-428
▁sy	-429
▁te	-430
▁we	-431
arts	-432
ates	-433
fect	-434
ffer	-435
here	-436
imit	-437
ound	-438
rong	-439
vera	-440
▁IPO	-441
▁bet	-442
▁che	-443
▁cho	-444
▁end	-445
▁exp	-446
▁hig	-447
▁hop	-448
▁how	-449
▁its	-450
▁sec	-451
icker	-452
inary	-453
ollow	-454
pread	-455
▁	-456
e	-457
t	-458
a	-459
o	-460
s	-461
n	-462
r	-463
i	-464
l	-465
h	-466
c	-467
d	-468
m	-469
p	-470
y	-471
u	-472
f	-473
g	-474
k	-475
w	-476
b	-477
v	-478
.	-479
,	-480
A	-481
T	-482
x	-483
I	-484
S	-485
O	-486
W	-487
E	-488
P	-489
q	-490
C	-491
D	-492
F	-493
N	-494
0	-495
j	-496
B	-497
M	-498
z	-499
&	-500
5	-501
U	-502
G	-503
J	-504
K	-505
L	-506
R	-507
Y	-508
